<pad>	0
<unk>	0
<bos>	0
<eos>	0
<user>	0
<assistant>	0
▁t	-0
▁a	-1
in	-2
he	-3
re	-4
on	-5
▁c	-6
▁s	-7
at	-8
nd	-9
er	-10
▁the	-11
es	-12
en	-13
or	-14
▁p	-15
an	-16
al	-17
▁and	-18
ing	-19
▁f	-20
is	-21
▁m	-22
▁w	-23
it	-24
ion	-25
▁in	-26
▁b	-27
▁o	-28
ed	-29
ro	-30
le	-31
ar	-32
▁e	-33
ic	-34
▁d	-35
▁of	-36
ou	-37
▁l	-38
as	-39
ent	-40
▁to	-41
▁h	-42
ct	-43
▁re	-44
▁g	-45
st	-46
ve	-47
ra	-48
▁n	-49
om	-50
ation	-51
im	-52
▁th	-53
et	-54
ce	-55
il	-56
ers	-57
▁con	-58
▁pro	-59
▁is	-60
ly	-61
##	-62
ut	-63
id	-64
▁for	-65
ol	-66
▁u	-67
ur	-68
od	-69
ul	-70
▁st	-71
lo	-72
ch	-73
ig	-74
se	-75
ions	-76
▁be	-77
▁com	-78
um	-79
ure	-80
▁ex	-81
qu	-82
▁are	-83
am	-84
if	-85
iv	-86
ies	-87
▁v	-88
ist	-89
ab	-90
ain	-91
ge	-92
▁de	-93
▁he	-94
pe	-95
ate	-96
▁mo	-97
th	-98
▁en	-99
ir	-100
ess	-101
▁or	-102
ke	-103
ud	-104
est	-105
▁it	-106
▁on	-107
ow	-108
▁an	-109
▁that	-110
▁y	-111
ith	-112
▁##	-113
un	-114
ity	-115
ay	-116
em	-117
res	-118
▁with	-119
▁as	-120
ant	-121
ive	-122
▁al	-123
▁wh	-124
ad	-125
os	-126
and	-127
▁inc	-128
ter	-129
rom	-130
our	-131
ment	-132
▁wor	-133
▁r	-134
ot	-135
ect	-136
ical	-137
pp	-138
ial	-139
ver	-140
▁###	-141
ort	-142
el	-143
rou	-144
▁pl	-145
▁le	-146
du	-147
▁ch	-148
ld	-149
▁"	-150
▁comp	-151
iz	-152
op	-153
us	-154
▁from	-155
▁1	-156
lud	-157
▁at	-158
▁by	-159
▁se	-160
▁includ	-161
all	-162
▁su	-163
ak	-164
ht	-165
ine	-166
▁ar	-167
▁sh	-168
▁cont	-169
ult	-170
ag	-171
her	-172
▁can	-173
pt	-174
ans	-175
ill	-176
▁sp	-177
og	-178
ri	-179
ass	-180
ide	-181
▁ha	-182
ang	-183
▁ne	-184
able	-185
ater	-186
ac	-187
red	-188
▁li	-189
yst	-190
▁tra	-191
ystem	-192
ations	-193
nt	-194
▁cl	-195
▁im	-196
ci	-197
ight	-198
▁j	-199
▁tr	-200
▁exp	-201
act	-202
reat	-203
▁inf	-204
▁like	-205
ms	-206
▁k	-207
ime	-208
▁have	-209
ks	-210
▁ac	-211
▁em	-212
▁qu	-213
ard	-214
▁ab	-215
▁whe	-216
ap	-217
ace	-218
ere	-219
low	-220
out	-221
gy	-222
ous	-223
▁his	-224
▁un	-225
▁int	-226
ph	-227
ps	-228
ell	-229
▁so	-230
ence	-231
▁man	-232
▁system	-233
ff	-234
age	-235
ated	-236
ces	-237
orm	-238
▁ad	-239
▁us	-240
ance	-241
▁gen	-242
▁hel	-243
gh	-244
dit	-245
les	-246
▁te	-247
nder	-248
▁num	-249
▁world	-250
ru	-251
ble	-252
ore	-253
▁me	-254
cess	-255
▁res	-256
▁you	-257
ach	-258
als	-259
▁spe	-260
ry	-261
now	-262
ood	-263
vol	-264
▁ra	-265
▁ele	-266
▁has	-267
▁rep	-268
▁was	-269
▁over	-270
▁water	-271
ep	-272
art	-273
ish	-274
▁cult	-275
▁numb	-276
▁your	-277
▁under	-278
00	-279
▁nat	-280
ction	-281
▁comm	-282
▁inter	-283
▁produ	-284
ics	-285
ome	-286
ric	-287
▁ma	-288
angu	-289
▁per	-290
rough	-291
▁langu	-292
na	-293
are	-294
ast	-295
ron	-296
ergy	-297
ural	-298
▁imp	-299
▁energy	-300
▁through	-301
ie	-302
ars	-303
etw	-304
ning	-305
ress	-306
▁var	-307
▁more	-308
ens	-309
gan	-310
ich	-311
ind	-312
rit	-313
▁ph	-314
▁sa	-315
ages	-316
ract	-317
▁app	-318
▁eff	-319
▁hum	-320
ments	-321
▁most	-322
▁about	-323
▁creat	-324
ile	-325
ized	-326
ould	-327
ures	-328
▁ind	-329
▁lar	-330
▁mod	-331
▁pre	-332
▁sur	-333
stand	-334
▁cons	-335
▁know	-336
▁when	-337
ue	-338
▁(	-339
ern	-340
ian	-341
ory	-342
▁pr	-343
ates	-344
ific	-345
tain	-346
▁dat	-347
▁dis	-348
▁val	-349
round	-350
▁prov	-351
▁trans	-352
iss	-353
ram	-354
ual	-355
ves	-356
ound	-357
ular	-358
velo	-359
ional	-360
ities	-361
ivers	-362
▁help	-363
▁play	-364
▁time	-365
ential	-366
▁including	-367
▁understand	-368
ts	-369
▁2	-370
▁am	-371
▁co	-372
▁fe	-373
▁ro	-374
ount	-375
▁but	-376
▁sol	-377
imate	-378
ution	-379
▁prot	-380
▁than	-381
▁which	-382
▁develo	-383
yp	-384
ife	-385
ord	-386
▁ev	-387
ents	-388
ther	-389
▁include	-390
oc	-391
ced	-392
led	-393
ons	-394
ues	-395
▁af	-396
▁bas	-397
▁ear	-398
▁its	-399
▁main	-400
▁they	-401
▁this	-402
▁their	-403
▁these	-404
▁develop	-405
ame	-406
ors	-407
per	-408
und	-409
▁go	-410
ange	-411
ides	-412
ines	-413
leep	-414
▁all	-415
▁eng	-416
▁one	-417
▁use	-418
▁data	-419
▁vari	-420
resent	-421
▁human	-422
▁other	-423
,"	-424
hy	-425
een	-426
end	-427
iff	-428
ire	-429
ust	-430
▁pe	-431
king	-432
▁dec	-433
▁how	-434
▁betw	-435
▁dist	-436
▁what	-437
▁sleep	-438
▁while	-439
▁comple	-440
▁between	-441
▁natural	-442
▁understanding	-443
ia	-444
hed	-445
ody	-446
ple	-447
ree	-448
▁bu	-449
▁ca	-450
▁we	-451
alth	-452
▁art	-453
▁gra	-454
▁new	-455
▁rel	-456
▁typ	-457
▁each	-458
▁into	-459
▁spec	-460
▁comput	-461
▁inform	-462
▁modern	-463
▁systems	-464
."	-465
lu	-466
ary	-467
ign	-468
ild	-469
ved	-470
▁19	-471
▁bo	-472
▁ye	-473
▁act	-474
ental	-475
▁cent	-476
▁diff	-477
▁pers	-478
▁prog	-479
▁writ	-480
cc	-481
ail	-482
hes	-483
ise	-484
ism	-485
ode	-486
row	-487
▁po	-488
apan	-489
cial	-490
gest	-491
ings	-492
ruct	-493
▁car	-494
▁mus	-495
▁reg	-496
▁war	-497
▁body	-498
▁call	-499
▁form	-500
▁them	-501
▁allow	-502
▁class	-503
▁japan	-504
▁organ	-505
ditions	-506
▁commun	-507
▁numbers	-508
▁i	-509
bal	-510
chn	-511
iod	-512
ond	-513
rib	-514
ros	-515
ten	-516
▁ag	-517
▁ec	-518
▁sc	-519
▁tw	-520
olog	-521
omet	-522
ople	-523
▁des	-524
▁inv	-525
▁med	-526
▁rec	-527
▁sci	-528
ility	-529
pport	-530
uring	-531
▁lear	-532
▁life	-533
▁many	-534
▁resp	-535
▁appro	-536
▁quant	-537
▁techn	-538
▁intern	-539
▁proble	-540
▁culture	-541
▁process	-542
▁information	-543
?"	-544
av	-545
hi	-546
ath	-547
gen	-548
▁eu	-549
▁op	-550
fore	-551
ross	-552
▁che	-553
▁col	-554
▁enc	-555
▁fin	-556
▁mak	-557
▁make	-558
ically	-559
▁found	-560
▁gener	-561
▁often	-562
▁pract	-563
▁health	-564
▁people	-565
▁maintain	-566
▁languages	-567
ft	-568
cle	-569
erm	-570
ici	-571
one	-572
ose	-573
oss	-574
▁do	-575
▁la	-576
▁ob	-577
ants	-578
ells	-579
ject	-580
pect	-581
▁glo	-582
▁ref	-583
▁two	-584
▁code	-585
▁open	-586
▁surf	-587
▁influ	-588
▁contin	-589
volution	-590
▁support	-591
ov	-592
so	-593
ug	-594
▁3	-595
ack	-596
erv	-597
ice	-598
ong	-599
▁sk	-600
ands	-601
cept	-602
etic	-603
ness	-604
onal	-605
ower	-606
rong	-607
▁fre	-608
▁fun	-609
▁imm	-610
ating	-611
▁work	-612
ources	-613
▁cells	-614
▁elect	-615
▁music	-616
▁years	-617
▁number	-618
▁differe	-619
▁language	-620
▁classical	-621
ck	-622
day	-623
ged	-624
get	-625
ict	-626
ins	-627
str	-628
vel	-629
▁av	-630
▁cy	-631
▁bec	-632
▁end	-633
▁ess	-634
▁ext	-635
▁fam	-636
▁ide	-637
▁met	-638
▁occ	-639
▁pop	-640
▁rem	-641
▁sun	-642
ledge	-643
▁expl	-644
▁food	-645
▁some	-646
▁afric	-647
▁decis	-648
▁earth	-649
▁invol	-650
▁large	-651
▁where	-652
ational	-653
▁across	-654
▁around	-655
▁called	-656
▁making	-657
▁period	-658
▁complex	-659
▁represent	-660
ec	-661
ew	-662
ll	-663
ns	-664
te	-665
xy	-666
▁fl	-667
▁if	-668
▁lo	-669
akes	-670
ases	-671
ices	-672
lect	-673
read	-674
▁att	-675
▁def	-676
▁dna	-677
▁him	-678
▁log	-679
▁mar	-680
▁not	-681
▁rom	-682
▁sim	-683
ology	-684
▁euro	-685
▁fund	-686
▁plan	-687
▁requ	-688
▁space	-689
▁using	-690
▁centur	-691
▁effici	-692
▁global	-693
▁import	-694
▁climate	-695
▁contain	-696
▁program	-697
▁quantum	-698
▁surface	-699
▁communic	-700
▁provides	-701
▁different	-702
▁knowledge	-703
ib	-704
xt	-705
▁5	-706
ays	-707
ets	-708
ied	-709
iqu	-710
its	-711
jor	-712
olf	-713
urs	-714
▁sm	-715
▁sw	-716
cing	-717
ends	-718
ible	-719
ints	-720
nect	-721
ving	-722
▁acc	-723
▁blo	-724
▁fri	-725
▁hig	-726
▁mat	-727
▁sec	-728
ories	-729
xygen	-730
▁arch	-731
▁exam	-732
▁indu	-733
▁mean	-734
▁well	-735
utions	-736
▁exist	-737
▁immun	-738
▁major	-739
▁quest	-740
ization	-741
▁largest	-742
▁protect	-743
▁developed	-744
▁efficient	-745
▁essential	-746
ds	-747
,00	-748
air	-749
ese	-750
ety	-751
ize	-752
ran	-753
sel	-754
use	-755
zon	-756
▁di	-757
▁ke	-758
▁up	-759
,000	-760
ined	-761
ires	-762
ivid	-763
lish	-764
very	-765
▁cir	-766
▁cle	-767
▁clo	-768
▁cor	-769
▁don	-770
▁gre	-771
▁inn	-772
▁run	-773
▁shi	-774
▁tem	-775
▁who	-776
ables	-777
ature	-778
itect	-779
ivity	-780
naiss	-781
other	-782
▁ecos	-783
▁fact	-784
▁good	-785
▁grow	-786
▁mass	-787
▁pass	-788
▁uses	-789
▁wind	-790
ximate	-791
▁count	-792
▁helps	-793
▁incre	-794
▁skill	-795
▁today	-796
ructure	-797
▁europe	-798
▁oxygen	-799
▁should	-800
▁connect	-801
▁friends	-802
▁genetic	-803
▁writing	-804
naissance	-805
▁includes	-806
▁involves	-807
▁japanese	-808
▁learning	-809
▁architect	-810
▁ecosystem	-811
▁important	-812
▁questions	-813
▁conditions	-814
▁approximate	-815
ats	-816
cip	-817
ful	-818
ier	-819
int	-820
ked	-821
lic	-822
ork	-823
▁ap	-824
▁gr	-825
▁no	-826
▁sy	-827
asks	-828
chie	-829
gypt	-830
ilos	-831
imes	-832
iron	-833
irst	-834
ists	-835
ited	-836
ming	-837
ophy	-838
ouse	-839
pend	-840
ries	-841
ward	-842
▁add	-843
▁lit	-844
ality	-845
aster	-846
▁caus	-847
▁even	-848
▁exec	-849
▁fall	-850
▁flow	-851
▁grav	-852
▁grou	-853
▁lead	-854
▁mill	-855
▁move	-856
▁only	-857
▁redu	-858
▁stud	-859
▁were	-860
▁achie	-861
▁build	-862
▁could	-863
▁egypt	-864
▁first	-865
▁heart	-866
▁power	-867
▁somet	-868
▁change	-869
▁contro	-870
▁effect	-871
▁fundam	-872
▁manage	-873
▁nature	-874
▁philos	-875
▁plants	-876
▁tradit	-877
ervation	-878
▁african	-879
▁problem	-880
▁creating	-881
▁elements	-882
▁personal	-883
▁specific	-884
▁decisions	-885
▁renaissance	-886
▁approximately	-887
),	-888
be	-889
ix	-890
wh	-891
ade	-892
ber	-893
eng	-894
mon	-895
ols	-896
tle	-897
van	-898
▁20	-899
▁el	-900
▁er	-901
ames	-902
arch	-903
ason	-904
atic	-905
form	-906
ital	-907
iver	-908
oral	-909
phas	-910
port	-911
▁bre	-912
▁emp	-913
▁env	-914
▁equ	-915
▁let	-916
▁sub	-917
acter	-918
cient	-919
ining	-920
ition	-921
jects	-922
pping	-923
ption	-924
▁been	-925
▁bill	-926
▁char	-927
▁chem	-928
▁comb	-929
▁conc	-930
▁conf	-931
▁fore	-932
▁four	-933
▁hist	-934
▁need	-935
▁part	-936
▁path	-937
▁sign	-938
▁then	-939
▁thin	-940
▁thou	-941
▁used	-942
▁wolf	-943
istics	-944
▁every	-945
▁exper	-946
▁goals	-947
▁grass	-948
▁known	-949
▁prime	-950
▁right	-951
▁roman	-952
▁solar	-953
▁types	-954
▁works	-955
ability	-956
itation	-957
▁before	-958
▁cities	-959
▁during	-960
▁emphas	-961
▁spread	-962
▁strong	-963
▁temper	-964
▁theory	-965
▁travel	-966
▁ancient	-967
▁century	-968
▁environ	-969
▁industr	-970
▁influen	-971
▁provide	-972
▁respons	-973
▁science	-974
▁cultures	-975
▁internet	-976
▁structure	-977
▁revolution	-978
▁architecture	-979
de	-980
▁9	-981
aly	-982
any	-983
ase	-984
cks	-985
cul	-986
els	-987
ght	-988
ilt	-989
new	-990
ogn	-991
ove	-992
▁ai	-993
▁ce	-994
▁cu	-995
▁ge	-996
▁ve	-997
aces	-998
ging	-999
hips	-1000
raph	-1001
ting	-1002
vent	-1003
what	-1004
▁ant	-1005
▁arg	-1006
▁beh	-1007
▁bet	-1008
▁cur	-1009
▁deb	-1010
▁ens	-1011
▁err	-1012
▁had	-1013
▁key	-1014
▁nut	-1015
▁oce	-1016
▁out	-1017
▁par	-1018
▁pol	-1019
▁set	-1020
ather	-1021
erest	-1022
imals	-1023
itive	-1024
▁also	-1025
▁atom	-1026
▁back	-1027
▁both	-1028
▁carb	-1029
▁emer	-1030
▁germ	-1031
▁home	-1032
▁inst	-1033
▁lion	-1034
▁netw	-1035
▁pred	-1036
▁prof	-1037
▁rele	-1038
▁repl	-1039
▁such	-1040
▁swim	-1041
iverse	-1042
▁after	-1043
▁began	-1044
▁clear	-1045
▁forms	-1046
▁innov	-1047
▁light	-1048
▁moral	-1049
▁mount	-1050
▁mouse	-1051
▁renew	-1052
▁small	-1053
▁state	-1054
▁tasks	-1055
▁allows	-1056
▁better	-1057
▁common	-1058
▁depend	-1059
▁immune	-1060
▁mental	-1061
▁occurs	-1062
▁pathog	-1063
▁scient	-1064
▁social	-1065
▁values	-1066
▁concept	-1067
▁control	-1068
▁english	-1069
▁express	-1070
▁individ	-1071
▁million	-1072
▁players	-1073
▁present	-1074
▁produce	-1075
▁techniqu	-1076
▁variable	-1077
▁computers	-1078
▁resources	-1079
▁philosophy	-1080
▁environment	-1081
▁fundamental	-1082
▁traditional	-1083
▁conservation	-1084
▁communication	-1085
br	-1086
ye	-1087
ys	-1088
ake	-1089
cra	-1090
gin	-1091
ily	-1092
mat	-1093
mos	-1094
phe	-1095
ren	-1096
▁18	-1097
▁bi	-1098
▁sl	-1099
▁ur	-1100
aily	-1101
hing	-1102
ider	-1103
orts	-1104
rams	-1105
self	-1106
ters	-1107
utes	-1108
vant	-1109
wide	-1110
▁aut	-1111
▁bra	-1112
▁cho	-1113
▁cre	-1114
▁dep	-1115
▁div	-1116
▁har	-1117
▁lat	-1118
▁may	-1119
▁min	-1120
▁off	-1121
▁pat	-1122
▁ste	-1123
▁sug	-1124
anges	-1125
ative	-1126
istic	-1127
rates	-1128
▁hare	-1129
▁high	-1130
▁land	-1131
▁line	-1132
▁loop	-1133
▁made	-1134
▁phot	-1135
▁poss	-1136
▁pres	-1137
▁rain	-1138
▁sequ	-1139
▁stat	-1140
▁will	-1141
atures	-1142
dition	-1143
ertain	-1144
forest	-1145
iation	-1146
▁atmos	-1147
▁being	-1148
▁break	-1149
▁chall	-1150
▁const	-1151
▁daily	-1152
▁early	-1153
▁impro	-1154
▁popul	-1155
▁speak	-1156
▁stand	-1157
▁thous	-1158
issions	-1159
oration	-1160
▁compos	-1161
▁disord	-1162
▁errors	-1163
▁ground	-1164
▁indian	-1165
▁points	-1166
▁states	-1167
▁achieve	-1168
▁animals	-1169
▁consist	-1170
▁contrib	-1171
▁example	-1172
▁explain	-1173
▁gravity	-1174
▁increas	-1175
▁product	-1176
▁species	-1177
▁billions	-1178
▁chemical	-1179
▁function	-1180
▁interest	-1181
▁problems	-1182
▁effective	-1183
▁pathogens	-1184
▁relations	-1185
▁renewable	-1186
▁solutions	-1187
▁transport	-1188
▁worldwide	-1189
▁individual	-1190
▁management	-1191
▁traditions	-1192
▁international	-1193
).	-1194
0%	-1195
ok	-1196
pl	-1197
yd	-1198
ze	-1199
apt	-1200
gor	-1201
ick	-1202
lie	-1203
nam	-1204
ned	-1205
rop	-1206
the	-1207
ued	-1208
umm	-1209
ute	-1210
▁fu	-1211
▁gu	-1212
azon	-1213
ball	-1214
igin	-1215
ired	-1216
isms	-1217
ives	-1218
line	-1219
ling	-1220
ocus	-1221
oise	-1222
onom	-1223
ours	-1224
reek	-1225
ring	-1226
tern	-1227
ulti	-1228
▁air	-1229
▁bud	-1230
▁coo	-1231
▁day	-1232
▁det	-1233
▁see	-1234
▁six	-1235
▁suc	-1236
craft	-1237
hesis	-1238
ience	-1239
ingly	-1240
irect	-1241
ished	-1242
isine	-1243
peare	-1244
phere	-1245
stain	-1246
▁appe	-1247
▁emot	-1248
▁enab	-1249
▁fish	-1250
▁goal	-1251
▁hand	-1252
▁heat	-1253
▁less	-1254
▁mess	-1255
▁mind	-1256
▁mole	-1257
▁prep	-1258
▁rail	-1259
▁real	-1260
▁said	-1261
▁same	-1262
▁show	-1263
▁text	-1264
▁tort	-1265
▁wide	-1266
ctions	-1267
itable	-1268
search	-1269
▁activ	-1270
▁adapt	-1271
▁belie	-1272
▁cycle	-1273
▁debug	-1274
▁focus	-1275
▁force	-1276
▁great	-1277
▁greek	-1278
▁ideas	-1279
▁loops	-1280
▁multi	-1281
▁press	-1282
▁prote	-1283
▁river	-1284
▁table	-1285
▁value	-1286
▁veget	-1287
▁write	-1288
ibility	-1289
▁access	-1290
▁amazon	-1291
▁create	-1292
▁design	-1293
▁direct	-1294
▁distin	-1295
▁econom	-1296
▁engine	-1297
▁famous	-1298
▁forest	-1299
▁humans	-1300
▁invest	-1301
▁origin	-1302
▁others	-1303
▁partic	-1304
▁planet	-1305
▁precip	-1306
▁proper	-1307
▁recogn	-1308
▁refers	-1309
▁remain	-1310
▁result	-1311
▁shakes	-1312
iversity	-1313
▁changes	-1314
▁created	-1315
▁cuisine	-1316
▁emerged	-1317
▁germany	-1318
▁meaning	-1319
▁network	-1320
▁objects	-1321
▁popular	-1322
▁prevent	-1323
▁reflect	-1324
▁require	-1325
▁sources	-1326
▁sustain	-1327
▁thought	-1328
▁consider	-1329
▁cultural	-1330
▁electric	-1331
▁movement	-1332
▁requires	-1333
▁signific	-1334
▁standard	-1335
▁swimming	-1336
▁tortoise	-1337
▁character	-1338
▁computing	-1339
▁condition	-1340
▁countries	-1341
▁emissions	-1342
▁evolution	-1343
▁functions	-1344
▁something	-1345
▁thousands	-1346
▁typically	-1347
▁activities	-1348
▁atmosphere	-1349
▁industrial	-1350
▁technology	-1351
▁throughout	-1352
▁shakespeare	-1353
▁precipitation	-1354
ba	-1355
gs	-1356
sy	-1357
avi	-1358
enn	-1359
ert	-1360
hip	-1361
how	-1362
ids	-1363
ift	-1364
ify	-1365
oid	-1366
opp	-1367
ral	-1368
rem	-1369
yle	-1370
▁aw	-1371
ared	-1372
ause	-1373
ched	-1374
eric	-1375
ilar	-1376
inst	-1377
izes	-1378
lebr	-1379
mers	-1380
oura	-1381
soci	-1382
sych	-1383
ties	-1384
▁194	-1385
▁ang	-1386
▁any	-1387
▁bce	-1388
▁ble	-1389
▁cal	-1390
▁cap	-1391
▁cro	-1392
▁dro	-1393
▁eas	-1394
▁ent	-1395
▁eth	-1396
▁eye	-1397
▁few	-1398
▁fol	-1399
▁hyd	-1400
▁ins	-1401
▁liv	-1402
▁loc	-1403
▁mem	-1404
▁mon	-1405
▁mut	-1406
▁non	-1407
▁pot	-1408
▁pun	-1409
▁ret	-1410
▁saf	-1411
▁squ	-1412
▁sym	-1413
▁tri	-1414
aring	-1415
ented	-1416
ering	-1417
erous	-1418
ision	-1419
light	-1420
ually	-1421
vanna	-1422
▁best	-1423
▁bran	-1424
▁circ	-1425
▁disc	-1426
▁fats	-1427
▁find	-1428
▁hard	-1429
▁last	-1430
▁leag	-1431
▁left	-1432
▁long	-1433
▁near	-1434
▁plat	-1435
▁prim	-1436
▁seas	-1437
▁soil	-1438
▁span	-1439
▁test	-1440
▁vill	-1441
▁west	-1442
▁wild	-1443
formed	-1444
gorith	-1445
itions	-1446
▁again	-1447
▁among	-1448
▁asked	-1449
▁avoid	-1450
▁built	-1451
▁close	-1452
▁condu	-1453
▁encry	-1454
▁explo	-1455
▁frequ	-1456
▁fuels	-1457
▁group	-1458
▁hours	-1459
▁latin	-1460
▁logic	-1461
▁mathe	-1462
▁means	-1463
▁might	-1464
▁psych	-1465
▁range	-1466
▁react	-1467
▁ships	-1468
▁sport	-1469
▁three	-1470
▁words	-1471
▁americ	-1472
▁applic	-1473
▁associ	-1474
▁behavi	-1475
▁blocks	-1476
▁causes	-1477
▁celebr	-1478
▁conver	-1479
▁empire	-1480
▁extrem	-1481
▁follow	-1482
▁little	-1483
▁photos	-1484
▁played	-1485
▁rather	-1486
▁reduce	-1487
▁rivers	-1488
▁skills	-1489
▁united	-1490
▁address	-1491
▁contact	-1492
▁predict	-1493
▁profess	-1494
▁regions	-1495
▁regular	-1496
▁savanna	-1497
▁similar	-1498
▁success	-1499
▁without	-1500
▁working	-1501
▁algorith	-1502
▁concepts	-1503
▁creative	-1504
▁distinct	-1505
▁electron	-1506
▁mountain	-1507
▁multiple	-1508
▁pressure	-1509
▁relevant	-1510
▁traveler	-1511
▁organisms	-1512
▁practices	-1513
▁producing	-1514
▁particular	-1515
▁production	-1516
▁properties	-1517
▁rainforest	-1518
▁scientists	-1519
▁statements	-1520
▁statistics	-1521
▁development	-1522
▁existential	-1523
▁maintaining	-1524
▁significant	-1525
▁applications	-1526
▁characterized	-1527
▁environmental	-1528
▁transportation	-1529
5.	-1530
bs	-1531
cl	-1532
cy	-1533
ex	-1534
li	-1535
ox	-1536
pa	-1537
ws	-1538
▁4	-1539
▁6	-1540
▁7	-1541
ams	-1542
ann	-1543
aut	-1544
ely	-1545
itu	-1546
ket	-1547
let	-1548
mal	-1549
med	-1550
nce	-1551
omp	-1552
oot	-1553
oud	-1554
pid	-1555
ted	-1556
uch	-1557
ump	-1558
urn	-1559
ynt	-1560
▁11	-1561
▁15	-1562
▁bl	-1563
▁dr	-1564
▁jo	-1565
airs	-1566
alay	-1567
ally	-1568
ccer	-1569
ered	-1570
hopp	-1571
ians	-1572
ided	-1573
igen	-1574
imul	-1575
ingu	-1576
ivil	-1577
land	-1578
load	-1579
orks	-1580
quid	-1581
reds	-1582
rodu	-1583
ucle	-1584
vers	-1585
ways	-1586
word	-1587
▁abs	-1588
▁arr	-1589
▁ass	-1590
▁boy	-1591
▁cat	-1592
▁dig	-1593
▁dra	-1594
▁est	-1595
▁hab	-1596
▁law	-1597
▁leg	-1598
▁mid	-1599
▁net	-1600
▁orb	-1601
▁our	-1602
▁red	-1603
▁saw	-1604
▁ser	-1605
▁sin	-1606
▁sto	-1607
▁str	-1608
▁ter	-1609
▁try	-1610
▁wat	-1611
▁win	-1612
▁zon	-1613
cules	-1614
ember	-1615
ences	-1616
ening	-1617
icult	-1618
iness	-1619
izing	-1620
ordin	-1621
ossil	-1622
raphy	-1623
right	-1624
terns	-1625
uting	-1626
▁arts	-1627
▁came	-1628
▁care	-1629
▁cere	-1630
▁clar	-1631
▁desc	-1632
▁does	-1633
▁dram	-1634
▁fear	-1635
▁five	-1636
▁flav	-1637
▁free	-1638
▁fres	-1639
▁game	-1640
▁gard	-1641
▁hund	-1642
▁idea	-1643
▁list	-1644
▁meas	-1645
▁must	-1646
▁next	-1647
▁oper	-1648
▁phys	-1649
▁prob	-1650
▁read	-1651
▁road	-1652
▁soci	-1653
▁summ	-1654
▁surv	-1655
▁take	-1656
▁vary	-1657
▁warm	-1658
▁year	-1659
alayas	-1660
ancial	-1661
ensive	-1662
ention	-1663
hopper	-1664
ometry	-1665
ourage	-1666
rients	-1667
uments	-1668
▁areas	-1669
▁autom	-1670
▁avail	-1671
▁begin	-1672
▁check	-1673
▁civil	-1674
▁cloak	-1675
▁comes	-1676
▁crops	-1677
▁dance	-1678
▁games	-1679
▁grand	-1680
▁green	-1681
▁later	-1682
▁lines	-1683
▁liter	-1684
▁manag	-1685
▁mater	-1686
▁needs	-1687
▁night	-1688
▁place	-1689
▁plant	-1690
▁plato	-1691
▁plays	-1692
▁there	-1693
▁think	-1694
▁would	-1695
▁wrong	-1696
▁zones	-1697
igenous	-1698
ketball	-1699
lection	-1700
pective	-1701
▁appear	-1702
▁become	-1703
▁branch	-1704
▁carbon	-1705
▁compet	-1706
▁determ	-1707
▁ensure	-1708
▁ethics	-1709
▁fossil	-1710
▁groups	-1711
▁growth	-1712
▁impact	-1713
▁likely	-1714
▁liquid	-1715
▁master	-1716
▁moving	-1717
▁oceans	-1718
▁online	-1719
▁second	-1720
▁soccer	-1721
▁stimul	-1722
▁trains	-1723
▁within	-1724
atically	-1725
ological	-1726
ynthesis	-1727
▁another	-1728
▁artists	-1729
▁ceremon	-1730
▁certain	-1731
▁cooking	-1732
▁depends	-1733
▁finance	-1734
▁groundw	-1735
▁history	-1736
▁prepare	-1737
▁quality	-1738
▁respond	-1739
▁results	-1740
▁suggest	-1741
▁univers	-1742
▁american	-1743
▁building	-1744
▁challeng	-1745
▁computer	-1746
▁continue	-1747
▁frequent	-1748
▁generate	-1749
▁geometry	-1750
▁globally	-1751
▁hundreds	-1752
▁material	-1753
▁mathemat	-1754
▁password	-1755
▁patterns	-1756
▁periodic	-1757
▁physical	-1758
▁practice	-1759
▁products	-1760
▁programs	-1761
▁proteins	-1762
▁research	-1763
▁sequence	-1764
▁shipping	-1765
▁suitable	-1766
▁sunlight	-1767
▁addresses	-1768
▁continued	-1769
▁debugging	-1770
▁difficult	-1771
▁disorders	-1772
▁financial	-1773
▁himalayas	-1774
▁influence	-1775
▁molecules	-1776
▁nutrients	-1777
▁potential	-1778
▁practical	-1779
▁algorithms	-1780
▁basketball	-1781
▁developing	-1782
▁ecosystems	-1783
▁encryption	-1784
▁foundation	-1785
▁indigenous	-1786
▁influenced	-1787
▁protecting	-1788
▁techniques	-1789
▁vegetables	-1790
▁electricity	-1791
▁grasshopper	-1792
▁sustainable	-1793
▁professional	-1794
▁temperatures	-1795
▁relationships	-1796
▁photosynthesis	-1797
bo	-1798
of	-1799
po	-1800
sa	-1801
sw	-1802
ub	-1803
uf	-1804
vi	-1805
wn	-1806
▁0	-1807
▁8	-1808
▁z	-1809
ape	-1810
asc	-1811
ban	-1812
bra	-1813
der	-1814
dle	-1815
equ	-1816
ero	-1817
eth	-1818
fer	-1819
hen	-1820
hod	-1821
hyd	-1822
iew	-1823
ler	-1824
lor	-1825
mit	-1826
not	-1827
oks	-1828
omm	-1829
oph	-1830
own	-1831
por	-1832
tal	-1833
ths	-1834
uth	-1835
val	-1836
ven	-1837
yth	-1838
▁14	-1839
▁25	-1840
▁50	-1841
▁ax	-1842
abor	-1843
amet	-1844
apor	-1845
edom	-1846
ense	-1847
ever	-1848
fect	-1849
gent	-1850
imin	-1851
ique	-1852
iter	-1853
itud	-1854
iven	-1855
just	-1856
life	-1857
like	-1858
ohyd	-1859
onse	-1860
phab	-1861
pped	-1862
ream	-1863
rect	-1864
ront	-1865
umes	-1866
ypot	-1867
▁adv	-1868
▁aff	-1869
▁ann	-1870
▁aud	-1871
▁bar	-1872
▁cam	-1873
▁cru	-1874
▁del	-1875
▁dev	-1876
▁fac	-1877
▁fit	-1878
▁flo	-1879
▁god	-1880
▁ill	-1881
▁kil	-1882
▁led	-1883
▁lim	-1884
▁lun	-1885
▁mot	-1886
▁obs	-1887
▁opp	-1888
▁rad	-1889
▁rev	-1890
▁she	-1891
▁sou	-1892
▁tim	-1893
▁too	-1894
▁top	-1895
▁tru	-1896
▁vol	-1897
▁wal	-1898
▁web	-1899
anded	-1900
ching	-1901
ended	-1902
ennis	-1903
enses	-1904
ident	-1905
ieces	-1906
ified	-1907
incip	-1908
inste	-1909
odies	-1910
oring	-1911
ource	-1912
oxide	-1913
ramew	-1914
ratic	-1915
uable	-1916
ufact	-1917
ughed	-1918
urity	-1919
▁asia	-1920
▁atri	-1921
▁ball	-1922
▁base	-1923
▁biod	-1924
▁bond	-1925
▁card	-1926
▁clim	-1927
▁come	-1928
▁cost	-1929
▁cour	-1930
▁crit	-1931
▁days	-1932
▁deep	-1933
▁diet	-1934
▁dise	-1935
▁down	-1936
▁eucl	-1937
▁face	-1938
▁fail	-1939
▁fast	-1940
▁feel	-1941
▁gain	-1942
▁just	-1943
▁laid	-1944
▁mach	-1945
▁mars	-1946
▁meat	-1947
▁mist	-1948
▁moon	-1949
▁much	-1950
▁pace	-1951
▁poll	-1952
▁post	-1953
▁race	-1954
▁rece	-1955
▁repe	-1956
▁sens	-1957
▁sent	-1958
▁sing	-1959
▁situ	-1960
▁slow	-1961
▁soon	-1962
▁symb	-1963
▁tiss	-1964
▁unex	-1965
▁weak	-1966
entric	-1967
erence	-1968
idence	-1969
ishing	-1970
overed	-1971
pected	-1972
ration	-1973
selves	-1974
verbal	-1975
▁above	-1976
▁absor	-1977
▁based	-1978
▁basic	-1979
▁beaut	-1980
▁blood	-1981
▁chlor	-1982
▁cover	-1983
▁datab	-1984
▁encod	-1985
▁event	-1986
▁famil	-1987
▁fresh	-1988
▁gives	-1989
▁hydro	-1990
▁hypot	-1991
▁invad	-1992
▁italy	-1993
▁learn	-1994
▁least	-1995
▁level	-1996
▁local	-1997
▁medic	-1998
▁nucle	-1999
▁occur	-2000
▁ocean	-2001
▁orbit	-2002
▁plate	-2003
▁ports	-2004
▁relig	-2005
▁shows	-2006
▁solve	-2007
▁speed	-2008
▁still	-2009
▁terms	-2010
▁times	-2011
▁tools	-2012
▁truth	-2013
▁valve	-2014
asoning	-2015
ilities	-2016
ivation	-2017
ruction	-2018
▁accord	-2019
▁adjust	-2020
▁affect	-2021
▁africa	-2022
▁alphab	-2023
▁arrang	-2024
▁atomic	-2025
▁became	-2026
▁budget	-2027
▁circle	-2028
▁commer	-2029
▁elimin	-2030
▁execut	-2031
▁family	-2032
▁faster	-2033
▁finish	-2034
▁framew	-2035
▁histor	-2036
▁infect	-2037
▁living	-2038
▁meters	-2039
▁method	-2040
▁middle	-2041
▁necess	-2042
▁preser	-2043
▁season	-2044
▁simple	-2045
▁source	-2046
▁square	-2047
▁stress	-2048
▁tennis	-2049
▁toward	-2050
▁triang	-2051
▁unique	-2052
▁urgent	-2053
▁wealth	-2054
▁widely	-2055
inciples	-2056
ractions	-2057
ructions	-2058
▁adapted	-2059
▁because	-2060
▁clarify	-2061
▁content	-2062
▁coordin	-2063
▁creates	-2064
▁crucial	-2065
▁dioxide	-2066
▁distrib	-2067
▁diverse	-2068
▁element	-2069
▁enabled	-2070
▁factors	-2071
▁focused	-2072
▁freedom	-2073
▁greater	-2074
▁laughed	-2075
▁leading	-2076
▁letters	-2077
▁massive	-2078
▁mastery	-2079
▁matters	-2080
▁perform	-2081
▁planets	-2082
▁protons	-2083
▁replied	-2084
▁running	-2085
▁smaller	-2086
▁society	-2087
▁speaker	-2088
▁stories	-2089
▁tissues	-2090
▁western	-2091
ification	-2092
ohydrates	-2093
▁activity	-2094
▁audience	-2095
▁aviation	-2096
▁climates	-2097
▁complete	-2098
▁compound	-2099
▁decision	-2100
▁directly	-2101
▁distance	-2102
▁european	-2103
▁expanded	-2104
▁immunity	-2105
▁improves	-2106
▁manufact	-2107
▁numerous	-2108
▁possible	-2109
▁produced	-2110
▁response	-2111
▁stronger	-2112
▁suggests	-2113
▁surround	-2114
▁thinking	-2115
▁training	-2116
▁universe	-2117
▁valuable	-2118
▁arguments	-2119
▁attention	-2120
▁beginning	-2121
▁buildings	-2122
▁centuries	-2123
▁container	-2124
▁diversity	-2125
▁economies	-2126
▁egyptians	-2127
▁emotional	-2128
▁encourage	-2129
▁equations	-2130
▁logistics	-2131
▁nonverbal	-2132
▁pollution	-2133
▁processes	-2134
▁reasoning	-2135
▁responses	-2136
▁sometimes	-2137
▁technique	-2138
▁universal	-2139
▁variables	-2140
▁challenges	-2141
▁containers	-2142
▁emphasized	-2143
▁influences	-2144
▁innovation	-2145
▁literature	-2146
▁originated	-2147
▁principles	-2148
▁themselves	-2149
▁unexpected	-2150
▁association	-2151
▁competitive	-2152
▁connections	-2153
▁efficiently	-2154
▁engineering	-2155
▁exploration	-2156
▁expressions	-2157
▁friendships	-2158
▁innovations	-2159
▁mathematics	-2160
▁personality	-2161
▁perspective	-2162
▁populations	-2163
▁probability	-2164
▁programming	-2165
▁temperature	-2166
▁transformed	-2167
▁civilization	-2168
▁dramatically	-2169
▁increasingly	-2170
▁instructions	-2171
▁particularly	-2172
▁presentation	-2173
▁carbohydrates	-2174
▁manufacturing	-2175
,8	-2176
.5	-2177
20	-2178
3,	-2179
50	-2180
69	-2181
ax	-2182
dh	-2183
ef	-2184
eg	-2185
eu	-2186
ip	-2187
ne	-2188
sh	-2189
to	-2190
ty	-2191
uc	-2192
up	-2193
xi	-2194
▁x	-2195
ale	-2196
ark	-2197
ean	-2198
ebe	-2199
elf	-2200
erc	-2201
for	-2202
ftw	-2203
ger	-2204
gth	-2205
har	-2206
hel	-2207
hin	-2208
hor	-2209
hys	-2210
iga	-2211
iov	-2212
irr	-2213
isy	-2214
ite	-2215
luc	-2216
nds	-2217
ner	-2218
oes	-2219
ole	-2220
ori	-2221
orn	-2222
pal	-2223
pan	-2224
pir	-2225
pos	-2226
pre	-2227
put	-2228
sol	-2229
ule	-2230
ull	-2231
uls	-2232
une	-2233
ura	-2234
urp	-2235
▁1,	-2236
▁10	-2237
▁90	-2238
▁br	-2239
▁da	-2240
▁dy	-2241
▁ed	-2242
▁gl	-2243
▁ii	-2244
▁kn	-2245
▁na	-2246
▁vo	-2247
▁wa	-2248
alse	-2249
ardo	-2250
atom	-2251
bers	-2252
bits	-2253
cest	-2254
chol	-2255
ency	-2256
grow	-2257
hens	-2258
hest	-2259
hood	-2260
hyth	-2261
iate	-2262
ideo	-2263
iles	-2264
imal	-2265
ious	-2266
ises	-2267
ived	-2268
know	-2269
less	-2270
lict	-2271
lies	-2272
ndom	-2273
oken	-2274
olic	-2275
omen	-2276
omes	-2277
oney	-2278
ough	-2279
phon	-2280
phus	-2281
play	-2282
rast	-2283
rees	-2284
rete	-2285
rmal	-2286
roke	-2287
rons	-2288
rupt	-2289
they	-2290
time	-2291
ught	-2292
umns	-2293
uses	-2294
vals	-2295
viet	-2296
▁300	-2297
▁age	-2298
▁aqu	-2299
▁bal	-2300
▁bir	-2301
▁bro	-2302
▁bul	-2303
▁bus	-2304
▁cra	-2305
▁cyc	-2306
▁cyt	-2307
▁did	-2308
▁dou	-2309
▁dry	-2310
▁fil	-2311
▁fut	-2312
▁gal	-2313
▁get	-2314
▁her	-2315
▁hol	-2316
▁hun	-2317
▁ing	-2318
▁irr	-2319
▁jud	-2320
▁mic	-2321
▁nba	-2322
▁nor	-2323
▁own	-2324
▁pil	-2325
▁pos	-2326
▁pow	-2327
▁ran	-2328
▁sam	-2329
▁sav	-2330
▁say	-2331
▁sea	-2332
▁soc	-2333
▁tea	-2334
▁upd	-2335
▁van	-2336
▁ver	-2337
▁vir	-2338
▁vis	-2339
▁wet	-2340
acher	-2341
aches	-2342
agers	-2343
alyze	-2344
anies	-2345
aphys	-2346
arian	-2347
arily	-2348
creat	-2349
elles	-2350
ellig	-2351
entor	-2352
erate	-2353
estiv	-2354
etime	-2355
hedul	-2356
ialog	-2357
ickly	-2358
idean	-2359
ieval	-2360
iling	-2361
inese	-2362
istry	-2363
itime	-2364
itude	-2365
lands	-2366
rated	-2367
ready	-2368
ribes	-2369
riers	-2370
start	-2371
veral	-2372
xiety	-2373
▁answ	-2374
▁apps	-2375
▁area	-2376
▁bits	-2377
▁brit	-2378
▁brow	-2379
▁capt	-2380
▁cham	-2381
▁cond	-2382
▁corn	-2383
▁cred	-2384
▁decl	-2385
▁dest	-2386
▁evol	-2387
▁exce	-2388
▁feed	-2389
▁foot	-2390
▁gene	-2391
▁gest	-2392
▁gluc	-2393
▁grew	-2394
▁isol	-2395
▁keep	-2396
▁laun	-2397
▁leon	-2398
▁loss	-2399
▁name	-2400
▁neut	-2401
▁nine	-2402
▁once	-2403
▁phen	-2404
▁port	-2405
▁priv	-2406
▁purp	-2407
▁quad	-2408
▁reli	-2409
▁rest	-2410
▁rice	-2411
▁rich	-2412
▁rise	-2413
▁rock	-2414
▁role	-2415
▁send	-2416
▁sisy	-2417
▁spac	-2418
▁spin	-2419
▁spir	-2420
▁stay	-2421
▁stra	-2422
▁tell	-2423
▁trop	-2424
▁true	-2425
▁vast	-2426
▁view	-2427
▁word	-2428
aching	-2429
adness	-2430
ebeest	-2431
elling	-2432
equate	-2433
estyle	-2434
ftware	-2435
idered	-2436
ivided	-2437
mitted	-2438
mother	-2439
phants	-2440
raints	-2441
rength	-2442
ricult	-2443
urance	-2444
vanced	-2445
▁1945.	-2446
▁abund	-2447
▁along	-2448
▁atoms	-2449
▁aware	-2450
▁basis	-2451
▁breat	-2452
▁buddh	-2453
▁camus	-2454
▁carry	-2455
▁catch	-2456
▁conve	-2457
▁court	-2458
▁cross	-2459
▁ended	-2460
▁exerc	-2461
▁faces	-2462
▁false	-2463
▁fires	-2464
▁flour	-2465
▁foods	-2466
▁front	-2467
▁genes	-2468
▁globe	-2469
▁graph	-2470
▁habit	-2471
▁heard	-2472
▁ideal	-2473
▁ident	-2474
▁india	-2475
▁integ	-2476
▁irrig	-2477
▁james	-2478
▁knife	-2479
▁makes	-2480
▁media	-2481
▁money	-2482
▁moons	-2483
▁nepal	-2484
▁oppon	-2485
▁order	-2486
▁overc	-2487
▁pairs	-2488
▁rapid	-2489
▁rhyth	-2490
▁schol	-2491
▁score	-2492
▁seven	-2493
▁share	-2494
▁shift	-2495
▁since	-2496
▁sound	-2497
▁south	-2498
▁stars	-2499
▁store	-2500
▁story	-2501
▁study	-2502
▁style	-2503
▁teams	-2504
▁those	-2505
▁treat	-2506
▁typed	-2507
▁urban	-2508
▁vapor	-2509
▁video	-2510
▁vital	-2511
acteria	-2512
angered	-2513
cestors	-2514
ference	-2515
instein	-2516
ography	-2517
ometers	-2518
reaming	-2519
ression	-2520
ulation	-2521
▁accept	-2522
▁altern	-2523
▁aspect	-2524
▁beauty	-2525
▁behind	-2526
▁belief	-2527
▁cannot	-2528
▁caught	-2529
▁caused	-2530
▁choose	-2531
▁confir	-2532
▁define	-2533
▁dialog	-2534
▁dishes	-2535
▁easier	-2536
▁effort	-2537
▁events	-2538
▁except	-2539
▁experi	-2540
▁explan	-2541
▁festiv	-2542
▁flavor	-2543
▁forces	-2544
▁formal	-2545
▁formed	-2546
▁future	-2547
▁handle	-2548
▁highly	-2549
▁league	-2550
▁linear	-2551
▁marine	-2552
▁memory	-2553
▁mentor	-2554
▁nearly	-2555
▁option	-2556
▁pieces	-2557
▁primes	-2558
▁punish	-2559
▁qubits	-2560
▁random	-2561
▁recomm	-2562
▁region	-2563
▁return	-2564
▁reward	-2565
▁routes	-2566
▁safety	-2567
▁secure	-2568
▁serves	-2569
▁single	-2570
▁slides	-2571
▁soviet	-2572
▁spaces	-2573
▁spoken	-2574
▁stages	-2575
▁strate	-2576
▁theore	-2577
▁though	-2578
▁threat	-2579
▁traged	-2580
▁unlike	-2581
▁valves	-2582
▁varies	-2583
▁winter	-2584
▁wright	-2585
▁account	-2586
▁against	-2587
▁already	-2588
▁anxiety	-2589
▁attract	-2590
▁britain	-2591
▁capital	-2592
▁careful	-2593
▁carries	-2594
▁central	-2595
▁challen	-2596
▁chinese	-2597
▁choices	-2598
▁circles	-2599
▁clearly	-2600
▁collect	-2601
▁columns	-2602
▁combine	-2603
▁conduct	-2604
▁convert	-2605
▁correct	-2606
▁country	-2607
▁defined	-2608
▁digital	-2609
▁divided	-2610
▁dropped	-2611
▁efforts	-2612
▁engines	-2613
▁evolved	-2614
▁experim	-2615
▁extreme	-2616
▁feature	-2617
▁finding	-2618
▁freight	-2619
▁general	-2620
▁glucose	-2621
▁helping	-2622
▁highest	-2623
▁himself	-2624
▁improve	-2625
▁introdu	-2626
▁leagues	-2627
▁machine	-2628
▁message	-2629
▁methods	-2630
▁minutes	-2631
▁nations	-2632
▁passing	-2633
▁perfect	-2634
▁periods	-2635
▁primary	-2636
▁purpose	-2637
▁quickly	-2638
▁reality	-2639
▁schedul	-2640
▁several	-2641
▁spanish	-2642
▁student	-2643
▁studies	-2644
▁survive	-2645
▁teacher	-2646
▁testing	-2647
▁thermal	-2648
▁transit	-2649
▁various	-2650
▁ventric	-2651
▁workers	-2652
elligence	-2653
riculture	-2654
▁adaptive	-2655
▁adequate	-2656
▁advanced	-2657
▁aircraft	-2658
▁allowing	-2659
▁approach	-2660
▁behavior	-2661
▁believed	-2662
▁business	-2663
▁composed	-2664
▁concrete	-2665
▁conflict	-2666
▁critical	-2667
▁designed	-2668
▁designer	-2669
▁disorder	-2670
▁distingu	-2671
▁division	-2672
▁egyptian	-2673
▁einstein	-2674
▁emotions	-2675
▁enabling	-2676
▁equation	-2677
▁examines	-2678
▁expenses	-2679
▁explored	-2680
▁features	-2681
▁leonardo	-2682
▁managing	-2683
▁maritime	-2684
▁medieval	-2685
▁messages	-2686
▁metaphys	-2687
▁organize	-2688
▁phenomen	-2689
▁projects	-2690
▁quantity	-2691
▁receives	-2692
▁remember	-2693
▁repeated	-2694
▁seasonal	-2695
▁security	-2696
▁sisyphus	-2697
▁software	-2698
▁spanning	-2699
▁strength	-2700
▁surfaces	-2701
▁thoughts	-2702
▁transfer	-2703
▁yourself	-2704
▁ancestors	-2705
▁available	-2706
▁awareness	-2707
▁behaviors	-2708
▁budgeting	-2709
▁community	-2710
▁companies	-2711
▁continues	-2712
▁databases	-2713
▁elephants	-2714
▁endurance	-2715
▁execution	-2716
▁executive	-2717
▁explained	-2718
▁extensive	-2719
▁factoring	-2720
▁festivals	-2721
▁increases	-2722
▁intervals	-2723
▁investing	-2724
▁listening	-2725
▁mountains	-2726
▁mutations	-2727
▁naturally	-2728
▁organized	-2729
▁passwords	-2730
▁primarily	-2731
▁quadratic	-2732
▁reactions	-2733
▁selection	-2734
▁sensitive	-2735
▁situation	-2736
▁triangles	-2737
▁variation	-2738
▁villagers	-2739
▁approaches	-2740
▁celebrated	-2741
▁ceremonies	-2742
▁conduction	-2743
▁connection	-2744
▁considered	-2745
▁consistent	-2746
▁creativity	-2747
▁depression	-2748
▁discovered	-2749
▁endangered	-2750
▁experience	-2751
▁frameworks	-2752
▁frequently	-2753
▁friendship	-2754
▁industries	-2755
▁irrigation	-2756
▁kilometers	-2757
▁motivation	-2758
▁population	-2759
▁psychology	-2760
▁scientific	-2761
▁spacecraft	-2762
▁wildebeest	-2763
▁accordingly	-2764
▁agriculture	-2765
▁alternative	-2766
▁communities	-2767
▁constraints	-2768
▁effectively	-2769
▁generations	-2770
▁grandmother	-2771
▁groundwater	-2772
▁potentially	-2773
▁programmers	-2774
▁responsible	-2775
▁transmitted	-2776
▁achievements	-2777
▁biodiversity	-2778
▁conditioning	-2779
▁evolutionary	-2780
▁intelligence	-2781
▁relationship	-2782
▁contributions	-2783
▁communications	-2784
▁existentialism	-2785
▁existentialist	-2786
▁responsibility	-2787
▁revolutionized	-2788
.8	-2789
0,	-2790
2,	-2791
3.	-2792
59	-2793
60	-2794
7,	-2795
ae	-2796
dr	-2797
ev	-2798
gg	-2799
ha	-2800
ik	-2801
ma	-2802
ng	-2803
pr	-2804
sp	-2805
ta	-2806
wl	-2807
ym	-2808
zz	-2809
▁'	-2810
200	-2811
agn	-2812
alu	-2813
ank	-2814
arc	-2815
arp	-2816
ash	-2817
ask	-2818
avy	-2819
aws	-2820
bas	-2821
bic	-2822
bor	-2823
bot	-2824
con	-2825
def	-2826
dim	-2827
hic	-2828
iar	-2829
iel	-2830
ils	-2831
ima	-2832
ino	-2833
isu	-2834
leg	-2835
lel	-2836
lex	-2837
loy	-2838
man	-2839
map	-2840
men	-2841
min	-2842
nch	-2843
off	-2844
osa	-2845
ost	-2846
pol	-2847
pro	-2848
ras	-2849
rat	-2850
ret	-2851
rob	-2852
roy	-2853
ume	-2854
vin	-2855
way	-2856
why	-2857
wid	-2858
you	-2859
ype	-2860
zil	-2861
▁17	-2862
▁2,	-2863
▁7,	-2864
▁fa	-2865
▁ga	-2866
▁gi	-2867
▁hi	-2868
▁ic	-2869
▁my	-2870
▁py	-2871
▁wo	-2872
▁ze	-2873
,800	-2874
aced	-2875
ails	-2876
airy	-2877
alyz	-2878
amia	-2879
arry	-2880
asts	-2881
atur	-2882
back	-2883
bert	-2884
bing	-2885
cape	-2886
care	-2887
chan	-2888
char	-2889
ches	-2890
cule	-2891
ding	-2892
else	-2893
empl	-2894
empt	-2895
enes	-2896
erch	-2897
etan	-2898
face	-2899
39	-2900
ael	-2901
ots	-2902
udw	-2903
xim	-2904
▁ho	-2905
adem	-2906
bras	-2907
esop	-2908
ests	-2909
fall	-2910
ffic	-2911
gend	-2912
gged	-2913
gies	-2914
hann	-2915
iced	-2916
igma	-2917
ilit	-2918
indu	-2919
itam	-2920
ites	-2921
ival	-2922
mier	-2923
miss	-2924
ollo	-2925
omin	-2926
onic	-2927
orit	-2928
otle	-2929
oven	-2930
over	-2931
ovol	-2932
pers	-2933
pher	-2934
ping	-2935
plic	-2936
ptim	-2937
redi	-2938
rest	-2939
ript	-2940
rote	-2941
rugg	-2942
sers	-2943
side	-2944
stry	-2945
sues	-2946
taic	-2947
tery	-2948
ules	-2949
ulpt	-2950
umps	-2951
uous	-2952
uras	-2953
ured	-2954
ushi	-2955
wolf	-2956
yond	-2957
▁10%	-2958
▁118	-2959
▁13,	-2960
▁197	-2961
▁20%	-2962
▁9.8	-2963
▁90%	-2964
▁alt	-2965
▁arm	-2966
▁bad	-2967
▁bat	-2968
▁cla	-2969
▁cri	-2970
▁cry	-2971
▁cup	-2972
▁cut	-2973
▁deo	-2974
▁din	-2975
▁dol	-2976
▁due	-2977
▁eve	-2978
▁far	-2979
▁gas	-2980
▁hit	-2981
▁hon	-2982
▁hot	-2983
▁jup	-2984
▁lay	-2985
▁lif	-2986
▁low	-2987
▁mac	-2988
▁mel	-2989
▁mig	-2990
▁mob	-2991
▁nam	-2992
▁oil	-2993
▁old	-2994
▁pen	-2995
▁pri	-2996
▁pub	-2997
▁put	-2998
▁ris	-2999
acc	-3000
acy	-3001
eks	-3002
ges	-3003
ior	-3004
ius	-3005
mak	-3006
opl	-3007
▁12	-3008
ager	-3009
flow	-3010
hern	-3011
inci	-3012
inks	-3013
ntil	-3014
ouds	-3015
ples	-3016
pura	-3017
roph	-3018
▁1.5	-3019
▁kin	-3020
▁sex	-3021
▁son	-3022
▁tal	-3023
▁tig	-3024
▁tur	-3025
▁via	-3026
▁way	-3027
▁why	-3028
▁won	-3029
acity	-3030
ademy	-3031
allel	-3032
anced	-3033
angle	-3034
anine	-3035
antic	-3036
arded	-3037
arize	-3038
artre	-3039
asion	-3040
asses	-3041
asted	-3042
astic	-3043
ately	-3044
atomy	-3045
ators	-3046
based	-3047
being	-3048
books	-3049
celer	-3050
comes	-3051
edies	-3052
eding	-3053
emned	-3054
empor	-3055
enine	-3056
entle	-3057
ertos	-3058
ested	-3059
eties	-3060
gance	-3061
gebra	-3062
gency	-3063
hands	-3064
haran	-3065
house	-3066
ially	-3067
icing	-3068
iding	-3069
ishes	-3070
ither	-3071
iving	-3072
liest	-3073
llent	-3074
lling	-3075
loads	-3076
namic	-3077
nding	-3078
ocrat	-3079
osine	-3080
osing	-3081
otive	-3082
ounts	-3083
panet	-3084
pired	-3085
plets	-3086
point	-3087
polar	-3088
posed	-3089
ranes	-3090
raphs	-3091
rical	-3092
tings	-3093
udwig	-3094
ulses	-3095
usion	-3096
usted	-3097
vests	-3098
width	-3099
ymine	-3100
▁1939	-3101
▁1969	-3102
▁abst	-3103
▁ages	-3104
▁agre	-3105
▁allo	-3106
▁asks	-3107
▁away	-3108
▁bach	-3109
▁band	-3110
▁blew	-3111
▁blue	-3112
▁born	-3113
▁brid	-3114
▁buff	-3115
▁bulk	-3116
▁bund	-3117
▁cogn	-3118
▁cold	-3119
▁coll	-3120
▁dams	-3121
▁dang	-3122
▁dead	-3123
▁debt	-3124
▁defe	-3125
▁desp	-3126
▁draw	-3127
▁east	-3128
▁easy	-3129
▁educ	-3130
▁else	-3131
▁evap	-3132
▁flat	-3133
▁flex	-3134
▁fran	-3135
▁full	-3136
▁gall	-3137
▁give	-3138
▁happ	-3139
▁hill	-3140
▁hous	-3141
▁imag	-3142
▁init	-3143
▁jump	-3144
▁june	-3145
▁kill	-3146
▁king	-3147
▁lack	-3148
▁late	-3149
▁leng	-3150
▁look	-3151
▁loud	-3152
▁meet	-3153
▁misu	-3154
▁mode	-3155
▁myth	-3156
▁nile	-3157
▁node	-3158
▁norm	-3159
▁nort	-3160
▁nuts	-3161
▁ones	-3162
▁pain	-3163
▁poly	-3164
▁prec	-3165
▁pump	-3166
▁pyth	-3167
▁reus	-3168
▁rhin	-3169
▁rows	-3170
▁sake	-3171
▁self	-3172
▁sept	-3173
▁serv	-3174
▁sets	-3175
▁shap	-3176
▁side	-3177
▁sino	-3178
▁size	-3179
▁skin	-3180
▁slam	-3181
▁soph	-3182
▁subs	-3183
▁subt	-3184
▁supp	-3185
▁syll	-3186
▁synt	-3187
▁task	-3188
▁term	-3189
▁tone	-3190
▁tons	-3191
▁tool	-3192
▁tour	-3193
▁type	-3194
▁unit	-3195
▁unre	-3196
▁vacc	-3197
▁vers	-3198
▁vict	-3199
▁wait	-3200
▁walk	-3201
▁ways	-3202
▁went	-3203
▁wins	-3204
▁woke	-3205
▁wood	-3206
▁zero	-3207
acters	-3208
airing	-3209
aluate	-3210
ameter	-3211
angelo	-3212
arting	-3213
asions	-3214
astern	-3215
depend	-3216
dimens	-3217
ediate	-3218
ellect	-3219
encing	-3220
engers	-3221
entals	-3222
erving	-3223
esopot	-3224
forced	-3225
gether	-3226
hicles	-3227
ibetan	-3228
idents	-3229
ightly	-3230
illing	-3231
imated	-3232
ionism	-3233
iovasc	-3234
isture	-3235
ivated	-3236
lished	-3237
matoes	-3238
monstr	-3239
nament	-3240
nowned	-3241
ooting	-3242
ophyll	-3243
osaurs	-3244
porate	-3245
ranean	-3246
rition	-3247
season	-3248
spring	-3249
stroke	-3250
ternal	-3251
wright	-3252
▁1,000	-3253
▁2,000	-3254
▁3,000	-3255
▁accur	-3256
▁acids	-3257
▁advoc	-3258
▁agree	-3259
▁amino	-3260
▁angry	-3261
▁anime	-3262
▁apply	-3263
▁arise	-3264
▁arist	-3265
▁bases	-3266
▁beans	-3267
▁beeth	-3268
▁birds	-3269
▁block	-3270
▁bonds	-3271
▁books	-3272
▁brain	-3273
▁bring	-3274
▁cause	-3275
▁chann	-3276
▁child	-3277
▁clean	-3278
▁click	-3279
▁cloud	-3280
▁colon	-3281
▁cools	-3282
▁crawl	-3283
▁cried	-3284
▁dairy	-3285
▁dense	-3286
▁doesn	-3287
▁drift	-3288
▁embra	-3289
▁estab	-3290
▁etern	-3291
▁euras	-3292
▁falls	-3293
▁flows	-3294
▁gases	-3295
▁giant	-3296
▁glass	-3297
▁gover	-3298
▁grain	-3299
▁heavy	-3300
▁hindu	-3301
▁incor	-3302
▁input	-3303
▁labor	-3304
▁lakes	-3305
▁leads	-3306
▁legal	-3307
▁lingu	-3308
▁links	-3309
▁lions	-3310
▁lived	-3311
▁lower	-3312
▁lunar	-3313
▁lungs	-3314
▁masks	-3315
▁match	-3316
▁meals	-3317
▁merch	-3318
▁milit	-3319
▁names	-3320
▁never	-3321
▁offic	-3322
▁optim	-3323
▁parag	-3324
▁pause	-3325
▁persu	-3326
▁point	-3327
▁polar	-3328
▁polit	-3329
▁print	-3330
▁pumps	-3331
▁punct	-3332
▁pyram	-3333
▁ramen	-3334
▁recre	-3335
▁regul	-3336
▁relat	-3337
▁retur	-3338
▁robot	-3339
▁rules	-3340
▁sharp	-3341
▁sheep	-3342
▁short	-3343
▁sides	-3344
▁smart	-3345
▁spain	-3346
▁spect	-3347
▁steam	-3348
▁steel	-3349
▁stret	-3350
▁surpr	-3351
▁surre	-3352
▁sushi	-3353
▁takes	-3354
▁total	-3355
▁trade	-3356
▁trees	-3357
▁trick	-3358
▁truly	-3359
▁union	-3360
▁until	-3361
▁vinci	-3362
▁vitam	-3363
▁voice	-3364
▁waste	-3365
▁weeks	-3366
▁wheat	-3367
▁wrote	-3368
▁young	-3369
aborate	-3370
alyzing	-3371
ameters	-3372
aration	-3373
arkable	-3374
arrying	-3375
cessive	-3376
culated	-3377
enished	-3378
entions	-3379
fulness	-3380
gendary	-3381
gestion	-3382
horized	-3383
ificial	-3384
igraphy	-3385
instorm	-3386
istence	-3387
iveness	-3388
mission	-3389
ominant	-3390
omplish	-3391
ophical	-3392
oplasts	-3393
phonies	-3394
quality	-3395
raction	-3396
resents	-3397
riptive	-3398
ronized	-3399
ropower	-3400
saharan	-3401
solving	-3402
telling	-3403
ulpture	-3404
umental	-3405
▁20,000	-3406
▁acknow	-3407
▁active	-3408
▁advant	-3409
▁albert	-3410
▁angles	-3411
▁annual	-3412
▁apollo	-3413
▁argued	-3414
▁artist	-3415
▁athens	-3416
▁atrium	-3417
▁attack	-3418
▁basics	-3419
▁begged	-3420
▁beyond	-3421
▁biases	-3422
▁blends	-3423
▁bodies	-3424
▁bonded	-3425
▁brazil	-3426
▁builds	-3427
▁calvin	-3428
▁center	-3429
▁choice	-3430
▁circul	-3431
▁circum	-3432
▁clouds	-3433
▁combin	-3434
▁credit	-3435
▁curved	-3436
▁cycles	-3437
▁depict	-3438
▁divide	-3439
▁divine	-3440
▁double	-3441
▁employ	-3442
▁encomp	-3443
▁euclid	-3444
▁europa	-3445
▁exempl	-3446
▁expect	-3447
▁facial	-3448
▁flight	-3449
▁formul	-3450
▁gained	-3451
▁gather	-3452
▁genres	-3453
▁gentle	-3454
▁german	-3455
▁gravit	-3456
▁guides	-3457
▁harbor	-3458
▁harmon	-3459
▁helped	-3460
▁higher	-3461
▁honest	-3462
▁illust	-3463
▁images	-3464
▁income	-3465
▁innate	-3466
▁instit	-3467
▁issues	-3468
▁itself	-3469
▁johann	-3470
▁larger	-3471
▁levels	-3472
▁listen	-3473
▁ludwig	-3474
▁marked	-3475
▁masses	-3476
▁mechan	-3477
▁median	-3478
▁michel	-3479
▁models	-3480
▁months	-3481
▁mutual	-3482
▁needed	-3483
▁object	-3484
▁possib	-3485
▁powers	-3486
▁proced	-3487
▁recent	-3488
▁retain	-3489
▁rights	-3490
▁romans	-3491
▁sartre	-3492
▁saving	-3493
▁saying	-3494
▁scenes	-3495
▁search	-3496
▁settle	-3497
▁slowly	-3498
▁sounds	-3499
▁spacex	-3500
▁spirit	-3501
▁spring	-3502
▁stable	-3503
▁stands	-3504
▁stigma	-3505
▁stores	-3506
▁struct	-3507
▁strugg	-3508
▁sugars	-3509
▁summer	-3510
▁timing	-3511
▁traits	-3512
▁transl	-3513
▁trucks	-3514
▁trying	-3515
▁typing	-3516
▁visual	-3517
▁volume	-3518
▁waters	-3519
▁weight	-3520
▁zebras	-3521
aturated	-3522
emporary	-3523
entrated	-3524
oriented	-3525
othermal	-3526
ovoltaic	-3527
piration	-3528
redients	-3529
research	-3530
ventions	-3531
▁absorbs	-3532
▁academy	-3533
▁acceler	-3534
▁actions	-3535
▁adenine	-3536
▁algebra	-3537
▁allowed	-3538
▁amounts	-3539
▁anatomy	-3540
▁arpanet	-3541
▁attempt	-3542
▁biology	-3543
▁bipolar	-3544
▁breathe	-3545
▁causing	-3546
▁centers	-3547
▁clauses	-3548
▁closely	-3549
▁convers	-3550
▁decided	-3551
▁deliver	-3552
▁destroy	-3553
▁devices	-3554
▁disease	-3555
▁display	-3556
▁distant	-3557
▁encoded	-3558
▁england	-3559
▁ensures	-3560
▁everest	-3561
▁execute	-3562
▁explore	-3563
▁factory	-3564
▁failure	-3565
▁falling	-3566
▁fastest	-3567
▁fitness	-3568
▁flavors	-3569
▁follows	-3570
▁forests	-3571
▁forming	-3572
▁forward	-3573
▁gaining	-3574
▁gardens	-3575
▁growing	-3576
▁guanine	-3577
▁habitat	-3578
▁healthy	-3579
▁however	-3580
▁impacts	-3581
▁infrast	-3582
▁invaded	-3583
▁islands	-3584
▁jupiter	-3585
▁kinetic	-3586
▁lasting	-3587
▁learned	-3588
▁legumes	-3589
▁limited	-3590
▁located	-3591
▁logical	-3592
▁manager	-3593
▁medical	-3594
▁mediter	-3595
▁mesopot	-3596
▁minimal	-3597
▁musical	-3598
▁nucleus	-3599
▁opening	-3600
▁outline	-3601
▁planted	-3602
▁playing	-3603
▁posture	-3604
▁premier	-3605
▁priorit	-3606
▁private	-3607
▁project	-3608
▁proport	-3609
▁protein	-3610
▁rapidly	-3611
▁reduced	-3612
▁reduces	-3613
▁related	-3614
▁repairs	-3615
▁replace	-3616
▁reprodu	-3617
▁rewards	-3618
▁rhythms	-3619
▁rockets	-3620
▁runtime	-3621
▁sadness	-3622
▁seasons	-3623
▁seeking	-3624
▁sharing	-3625
▁solving	-3626
▁someone	-3627
▁studied	-3628
▁subject	-3629
▁symbols	-3630
▁tempura	-3631
▁theorem	-3632
▁threats	-3633
▁thymine	-3634
▁traffic	-3635
▁updates	-3636
▁variety	-3637
▁village	-3638
▁wealthy	-3639
▁winning	-3640
abilities	-3641
dependent	-3642
ellectual	-3643
isticated	-3644
nderstand	-3645
▁abstract	-3646
▁abundant	-3647
▁alphabet	-3648
▁altitude	-3649
▁annually	-3650
▁answered	-3651
▁appeared	-3652
▁arranged	-3653
▁attracts	-3654
▁bacteria	-3655
▁balanced	-3656
▁barriers	-3657
▁browsers	-3658
▁buddhism	-3659
▁capacity	-3660
▁captures	-3661
▁chambers	-3662
▁combined	-3663
▁combines	-3664
▁comedies	-3665
▁commerce	-3666
▁covering	-3667
▁cytosine	-3668
▁declared	-3669
▁defining	-3670
▁demonstr	-3671
▁develops	-3672
▁dialogue	-3673
▁digested	-3674
▁diseases	-3675
▁droplets	-3676
▁ensuring	-3677
▁entangle	-3678
▁eurasian	-3679
▁evaluate	-3680
▁everyday	-3681
▁evidence	-3682
▁exercise	-3683
▁extended	-3684
▁external	-3685
▁familiar	-3686
▁families	-3687
▁feedback	-3688
▁football	-3689
▁forestry	-3690
▁gestures	-3691
▁greatest	-3692
▁handling	-3693
▁harvests	-3694
▁hinduism	-3695
▁hydrogen	-3696
▁impulses	-3697
▁included	-3698
▁industry	-3699
▁infected	-3700
▁inspired	-3701
▁interpre	-3702
▁invaders	-3703
▁invented	-3704
▁involved	-3705
▁measures	-3706
▁medicine	-3707
▁memories	-3708
▁military	-3709
▁millions	-3710
▁mistakes	-3711
▁moisture	-3712
▁molecule	-3713
▁networks	-3714
▁neutrons	-3715
▁opponent	-3716
▁ornament	-3717
▁outcomes	-3718
▁overcome	-3719
▁parallel	-3720
▁planning	-3721
▁powerful	-3722
▁preserve	-3723
▁produces	-3724
▁profound	-3725
▁progress	-3726
▁proposed	-3727
▁railways	-3728
▁reaction	-3729
▁reflects	-3730
▁regarded	-3731
▁reliable	-3732
▁renowned	-3733
▁reusable	-3734
▁romantic	-3735
▁scholars	-3736
▁services	-3737
▁shooting	-3738
▁slightly	-3739
▁smallest	-3740
▁socrates	-3741
▁speakers	-3742
▁starting	-3743
▁stations	-3744
▁stopping	-3745
▁supports	-3746
▁survived	-3747
▁swimmers	-3748
▁theories	-3749
▁together	-3750
▁tomatoes	-3751
▁tropical	-3752
▁vaccines	-3753
▁vehicles	-3754
▁vitamins	-3755
▁weakness	-3756
▁wildlife	-3757
creativity	-3758
iovascular	-3759
▁absorbing	-3760
▁afterlife	-3761
▁aristotle	-3762
▁arranging	-3763
▁bandwidth	-3764
▁beethoven	-3765
▁carefully	-3766
▁challenge	-3767
▁chemistry	-3768
▁concertos	-3769
▁confirmed	-3770
▁countless	-3771
▁dangerous	-3772
▁describes	-3773
▁deviation	-3774
▁dinosaurs	-3775
▁education	-3776
▁elaborate	-3777
▁electrons	-3778
▁eliminate	-3779
▁emphasize	-3780
▁engineers	-3781
▁entertain	-3782
▁estimated	-3783
▁euclidean	-3784
▁excellent	-3785
▁excessive	-3786
▁existence	-3787
▁expressed	-3788
▁extremely	-3789
▁factories	-3790
▁freestyle	-3791
▁gardening	-3792
▁generally	-3793
▁generates	-3794
▁geography	-3795
▁immediate	-3796
▁increased	-3797
▁interrupt	-3798
▁legendary	-3799
▁materials	-3800
▁migration	-3801
▁necessary	-3802
▁necessity	-3803
▁nutrition	-3804
▁offspring	-3805
▁performed	-3806
▁preserved	-3807
▁protected	-3808
▁providing	-3809
▁radiation	-3810
▁recognize	-3811
▁recommend	-3812
▁religions	-3813
▁remaining	-3814
▁sculpture	-3815
▁september	-3816
▁spacetime	-3817
▁stimulate	-3818
▁streaming	-3819
▁summarize	-3820
▁supported	-3821
▁tradition	-3822
▁tragedies	-3823
▁ventricle	-3824
dimensional	-3825
forestation	-3826
▁accessible	-3827
▁accomplish	-3828
▁accurately	-3829
▁artificial	-3830
▁associated	-3831
▁automotive	-3832
▁brainstorm	-3833
▁calculated	-3834
▁characters	-3835
▁collecting	-3836
▁collection	-3837
▁commercial	-3838
▁complement	-3839
▁completely	-3840
▁completing	-3841
▁confidence	-3842
▁congestion	-3843
▁continuous	-3844
▁contribute	-3845
▁convection	-3846
▁determined	-3847
▁determines	-3848
▁electrical	-3849
▁emphasizes	-3850
▁experiment	-3851
▁flourished	-3852
▁geothermal	-3853
▁greenhouse	-3854
▁groundwork	-3855
▁historical	-3856
▁hydropower	-3857
▁hypothesis	-3858
▁importance	-3859
▁increasing	-3860
▁inventions	-3861
▁medication	-3862
▁meditation	-3863
▁operations	-3864
▁passengers	-3865
▁phenomenon	-3866
▁playwright	-3867
▁preserving	-3868
▁preventing	-3869
▁recognized	-3870
▁relativity	-3871
▁remarkable	-3872
▁repeatedly	-3873
▁represents	-3874
▁scheduling	-3875
▁strategies	-3876
▁structured	-3877
▁structures	-3878
▁supporting	-3879
▁symphonies	-3880
▁systematic	-3881
▁variations	-3882
▁calligraphy	-3883
▁chlorophyll	-3884
▁communicate	-3885
▁conventions	-3886
▁descriptive	-3887
▁distinctive	-3888
▁evaporation	-3889
▁exceptional	-3890
▁exemplified	-3891
▁explanation	-3892
▁flexibility	-3893
▁influential	-3894
▁ingredients	-3895
▁mesopotamia	-3896
▁metaphysics	-3897
▁mindfulness	-3898
▁observation	-3899
▁popularized	-3900
▁predictions	-3901
▁preparation	-3902
▁punishments	-3903
▁recognition	-3904
▁replenished	-3905
▁represented	-3906
▁stimulating	-3907
▁surrounding	-3908
▁transitions	-3909
nderstandings	-3910
▁availability	-3911
▁celebrations	-3912
▁chloroplasts	-3913
▁colonization	-3914
▁combinations	-3915
▁compositions	-3916
▁concentrated	-3917
▁construction	-3918
▁contemporary	-3919
▁conversation	-3920
▁coordination	-3921
▁distractions	-3922
▁distributing	-3923
▁distribution	-3924
▁fundamentals	-3925
▁historically	-3926
▁institutions	-3927
▁intellectual	-3928
▁michelangelo	-3929
▁organization	-3930
▁photovoltaic	-3931
▁proportional	-3932
▁representing	-3933
▁storytelling	-3934
▁circumference	-3935
▁fundamentally	-3936
▁gravitational	-3937
▁mediterranean	-3938
▁perfectionism	-3939
▁philosophical	-3940
▁possibilities	-3941
▁psychological	-3942
▁sophisticated	-3943
▁technological	-3944
▁traditionally	-3945
▁cardiovascular	-3946
▁electronically	-3947
▁infrastructure	-3948
▁prioritization	-3949
,84	-3950
03.	-3951
53.	-3952
57,	-3953
bai	-3954
deg	-3955
eye	-3956
ggs	-3957
nea	-3958
nik	-3959
obe	-3960
oye	-3961
sub	-3962
tze	-3963
▁0,	-3964
▁4.	-3965
▁47	-3966
▁5)	-3967
▁5,	-3968
▁79	-3969
▁8,	-3970
,849	-3971
aeop	-3972
anha	-3973
asco	-3974
berg	-3975
berl	-3976
beth	-3977
cale	-3978
cont	-3979
curs	-3980
drin	-3981
efit	-3982
enne	-3983
enny	-3984
fiel	-3985
fren	-3986
hima	-3987
iews	-3988
leev	-3989
mede	-3990
mful	-3991
nets	-3992
ober	-3993
offs	-3994
ombs	-3995
oori	-3996
otox	-3997
paul	-3998
phem	-3999
dec	-4000
ews	-4001
nsy	-4002
alty	-4003
cket	-4004
ckle	-4005
dict	-4006
geti	-4007
itty	-4008
lock	-4009
loyd	-4010
nsyl	-4011
puls	-4012
rene	-4013
rugs	-4014
telo	-4015
text	-4016
thpl	-4017
ucho	-4018
viol	-4019
when	-4020
▁11,	-4021
▁125	-4022
▁15,	-4023
▁150	-4024
▁17.	-4025
▁180	-4026
▁25-	-4027
▁25.	-4028
▁30,	-4029
▁40,	-4030
▁476	-4031
▁5.5	-4032
▁800	-4033
▁90-	-4034
▁awk	-4035
▁gaz	-4036
▁sik	-4037
▁smo	-4038
acute	-4039
adeus	-4040
▁	-4041
e	-4042
a	-4043
t	-4044
n	-4045
i	-4046
s	-4047
o	-4048
r	-4049
l	-4050
d	-4051
c	-4052
h	-4053
u	-4054
m	-4055
p	-4056
g	-4057
f	-4058
y	-4059
,	-4060
.	-4061
b	-4062
w	-4063
v	-4064
k	-4065
#	-4066
x	-4067
"	-4068
q	-4069
0	-4070
z	-4071
'	-4072
j	-4073
-	-4074
1	-4075
9	-4076
2	-4077
5	-4078
?	-4079
(	-4080
)	-4081
:	-4082
3	-4083
4	-4084
8	-4085
7	-4086
—	-4087
%	-4088
6	-4089
